/* Generated by Edge Impulse
 *
 * Permission is hereby granted, free of charge, to any person obtaining a copy
 * of this software and associated documentation files (the "Software"), to deal
 * in the Software without restriction, including without limitation the rights
 * to use, copy, modify, merge, publish, distribute, sublicense, and/or sell
 * copies of the Software, and to permit persons to whom the Software is
 * furnished to do so, subject to the following conditions:
 *
 * The above copyright notice and this permission notice shall be included in
 * all copies or substantial portions of the Software.
 *
 * THE SOFTWARE IS PROVIDED "AS IS", WITHOUT WARRANTY OF ANY KIND, EXPRESS OR
 * IMPLIED, INCLUDING BUT NOT LIMITED TO THE WARRANTIES OF MERCHANTABILITY,
 * FITNESS FOR A PARTICULAR PURPOSE AND NONINFRINGEMENT. IN NO EVENT SHALL THE
 * AUTHORS OR COPYRIGHT HOLDERS BE LIABLE FOR ANY CLAIM, DAMAGES OR OTHER
 * LIABILITY, WHETHER IN AN ACTION OF CONTRACT, TORT OR OTHERWISE, ARISING FROM,
 * OUT OF OR IN CONNECTION WITH THE SOFTWARE OR THE USE OR OTHER DEALINGS IN THE
 * SOFTWARE.
 */

#ifndef _EI_CLASSIFIER_TFLITE_LEARN_79_H_
#define _EI_CLASSIFIER_TFLITE_LEARN_79_H_

#define EI_CLASSIFIER_TFLITE_LEARN_79_ARENA_SIZE     3289
const size_t tflite_learn_79_arena_size = 3289;

#ifdef EI_CLASSIFIER_TFLITE_ARENA_SIZE
#if EI_CLASSIFIER_TFLITE_ARENA_SIZE < EI_CLASSIFIER_TFLITE_LEARN_79_ARENA_SIZE
#undef EI_CLASSIFIER_TFLITE_ARENA_SIZE
#define EI_CLASSIFIER_TFLITE_ARENA_SIZE EI_CLASSIFIER_TFLITE_LEARN_79_ARENA_SIZE
#endif // #if EI_CLASSIFIER_TFLITE_ARENA_SIZE < EI_CLASSIFIER_TFLITE_LEARN_79_ARENA_SIZE
#else
#define EI_CLASSIFIER_TFLITE_ARENA_SIZE EI_CLASSIFIER_TFLITE_LEARN_79_ARENA_SIZE
#endif // #ifdef EI_CLASSIFIER_TFLITE_ARENA_SIZE

#if defined __GNUC__
#define ALIGN(X) __attribute__((aligned(X)))
#elif defined _MSC_VER
#define ALIGN(X) __declspec(align(X))
#elif defined __TASKING__
#define ALIGN(X) __align(X)
#else
#define ALIGN(X)
#endif
ALIGN(16) const unsigned char tflite_learn_79[] = {
  0x1c, 0x00, 0x00, 0x00, 0x54, 0x46, 0x4c, 0x33, 0x14, 0x00, 0x20, 0x00,
  0x1c, 0x00, 0x18, 0x00, 0x14, 0x00, 0x10, 0x00, 0x0c, 0x00, 0x00, 0x00,
  0x08, 0x00, 0x04, 0x00, 0x14, 0x00, 0x00, 0x00, 0x1c, 0x00, 0x00, 0x00,
  0x8c, 0x00, 0x00, 0x00, 0xe4, 0x00, 0x00, 0x00, 0xa4, 0x06, 0x00, 0x00,
  0xb4, 0x06, 0x00, 0x00, 0x3c, 0x0f, 0x00, 0x00, 0x03, 0x00, 0x00, 0x00,
  0x01, 0x00, 0x00, 0x00, 0x10, 0x00, 0x00, 0x00, 0x00, 0x00, 0x0a, 0x00,
  0x10, 0x00, 0x0c, 0x00, 0x08, 0x00, 0x04, 0x00, 0x0a, 0x00, 0x00, 0x00,
  0x0c, 0x00, 0x00, 0x00, 0x1c, 0x00, 0x00, 0x00, 0x3c, 0x00, 0x00, 0x00,
  0x0f, 0x00, 0x00, 0x00, 0x73, 0x65, 0x72, 0x76, 0x69, 0x6e, 0x67, 0x5f,
  0x64, 0x65, 0x66, 0x61, 0x75, 0x6c, 0x74, 0x00, 0x01, 0x00, 0x00, 0x00,
  0x04, 0x00, 0x00, 0x00, 0x9c, 0xff, 0xff, 0xff, 0x0d, 0x00, 0x00, 0x00,
  0x04, 0x00, 0x00, 0x00, 0x08, 0x00, 0x00, 0x00, 0x6f, 0x75, 0x74, 0x70,
  0x75, 0x74, 0x5f, 0x30, 0x00, 0x00, 0x00, 0x00, 0x01, 0x00, 0x00, 0x00,
  0x04, 0x00, 0x00, 0x00, 0x3e, 0xf9, 0xff, 0xff, 0x04, 0x00, 0x00, 0x00,
  0x01, 0x00, 0x00, 0x00, 0x78, 0x00, 0x00, 0x00, 0x02, 0x00, 0x00, 0x00,
  0x34, 0x00, 0x00, 0x00, 0x04, 0x00, 0x00, 0x00, 0xdc, 0xff, 0xff, 0xff,
  0x10, 0x00, 0x00, 0x00, 0x04, 0x00, 0x00, 0x00, 0x13, 0x00, 0x00, 0x00,
  0x43, 0x4f, 0x4e, 0x56, 0x45, 0x52, 0x53, 0x49, 0x4f, 0x4e, 0x5f, 0x4d,
  0x45, 0x54, 0x41, 0x44, 0x41, 0x54, 0x41, 0x00, 0x08, 0x00, 0x0c, 0x00,
  0x08, 0x00, 0x04, 0x00, 0x08, 0x00, 0x00, 0x00, 0x0f, 0x00, 0x00, 0x00,
  0x04, 0x00, 0x00, 0x00, 0x13, 0x00, 0x00, 0x00, 0x6d, 0x69, 0x6e, 0x5f,
  0x72, 0x75, 0x6e, 0x74, 0x69, 0x6d, 0x65, 0x5f, 0x76, 0x65, 0x72, 0x73,
  0x69, 0x6f, 0x6e, 0x00, 0x11, 0x00, 0x00, 0x00, 0xbc, 0x05, 0x00, 0x00,
  0xb4, 0x05, 0x00, 0x00, 0x9c, 0x05, 0x00, 0x00, 0x80, 0x05, 0x00, 0x00,
  0x5c, 0x05, 0x00, 0x00, 0x18, 0x05, 0x00, 0x00, 0xe0, 0x04, 0x00, 0x00,
  0x08, 0x04, 0x00, 0x00, 0xa8, 0x03, 0x00, 0x00, 0xb4, 0x00, 0x00, 0x00,
  0xac, 0x00, 0x00, 0x00, 0xa4, 0x00, 0x00, 0x00, 0x9c, 0x00, 0x00, 0x00,
  0x94, 0x00, 0x00, 0x00, 0x8c, 0x00, 0x00, 0x00, 0x6c, 0x00, 0x00, 0x00,
  0x04, 0x00, 0x00, 0x00, 0xf2, 0xf9, 0xff, 0xff, 0x04, 0x00, 0x00, 0x00,
  0x58, 0x00, 0x00, 0x00, 0x0c, 0x00, 0x00, 0x00, 0x08, 0x00, 0x0e, 0x00,
  0x08, 0x00, 0x04, 0x00, 0x08, 0x00, 0x00, 0x00, 0x10, 0x00, 0x00, 0x00,
  0x28, 0x00, 0x00, 0x00, 0x00, 0x00, 0x06, 0x00, 0x08, 0x00, 0x04, 0x00,
  0x06, 0x00, 0x00, 0x00, 0x04, 0x00, 0x00, 0x00, 0x01, 0x00, 0x00, 0x00,
  0xeb, 0x03, 0x00, 0x00, 0x00, 0x00, 0x0a, 0x00, 0x10, 0x00, 0x0c, 0x00,
  0x08, 0x00, 0x04, 0x00, 0x0a, 0x00, 0x00, 0x00, 0x03, 0x00, 0x00, 0x00,
  0x02, 0x00, 0x00, 0x00, 0x04, 0x00, 0x00, 0x00, 0x06, 0x00, 0x00, 0x00,
  0x32, 0x2e, 0x31, 0x31, 0x2e, 0x31, 0x00, 0x00, 0x56, 0xfa, 0xff, 0xff,
  0x04, 0x00, 0x00, 0x00, 0x10, 0x00, 0x00, 0x00, 0x31, 0x2e, 0x31, 0x34,
  0x2e, 0x30, 0x00, 0x00, 0x00, 0x00, 0x00, 0x00, 0x00, 0x00, 0x00, 0x00,
  0x40, 0xfa, 0xff, 0xff, 0x44, 0xfa, 0xff, 0xff, 0x48, 0xfa, 0xff, 0xff,
  0x4c, 0xfa, 0xff, 0xff, 0x50, 0xfa, 0xff, 0xff, 0x86, 0xfa, 0xff, 0xff,
  0x04, 0x00, 0x00, 0x00, 0xe4, 0x02, 0x00, 0x00, 0xf2, 0xef, 0xf5, 0x4e,
  0x11, 0x28, 0x12, 0xa9, 0x18, 0x97, 0xee, 0x1a, 0x8e, 0xa8, 0xda, 0x57,
  0x0f, 0x44, 0xbb, 0xbc, 0x54, 0xd5, 0x50, 0x06, 0x8b, 0x3b, 0xbc, 0xbb,
  0xa4, 0x8c, 0x0e, 0x16, 0x36, 0x95, 0x89, 0x24, 0xaf, 0x86, 0xf7, 0x4e,
  0x06, 0xd8, 0x09, 0x1a, 0x18, 0x28, 0x5f, 0xad, 0x26, 0x05, 0x0b, 0x3c,
  0xb9, 0x4f, 0x2e, 0x69, 0xb2, 0xe3, 0xeb, 0x54, 0xe0, 0x30, 0x2d, 0xe2,
  0x48, 0xdb, 0xa3, 0xe4, 0x60, 0x58, 0x64, 0x44, 0xd2, 0x9b, 0x41, 0xe8,
  0x97, 0xb0, 0x37, 0xbe, 0x3f, 0x58, 0x65, 0xee, 0xa2, 0x0a, 0xa5, 0x2f,
  0xb6, 0x47, 0x1d, 0x3b, 0xf9, 0x28, 0x69, 0x8e, 0x37, 0x9e, 0x05, 0xdb,
  0x64, 0x30, 0xbd, 0x9f, 0xbe, 0x43, 0x32, 0xa6, 0xe3, 0xd3, 0x97, 0x9b,
  0x47, 0xc2, 0x5d, 0x0e, 0x50, 0x00, 0x77, 0x3e, 0xa3, 0x61, 0x60, 0x3b,
  0x4d, 0x35, 0xe8, 0xaf, 0xca, 0x24, 0x48, 0xbb, 0x33, 0xb6, 0xd8, 0x49,
  0x3f, 0xb3, 0x49, 0x62, 0x4e, 0xd1, 0x32, 0x61, 0xd3, 0x4c, 0x17, 0x75,
  0x58, 0x0e, 0x0b, 0xb6, 0xa5, 0xa7, 0x5c, 0xe1, 0xc7, 0x3f, 0xdb, 0x11,
  0xb4, 0xca, 0xae, 0x3a, 0x3e, 0x47, 0xf2, 0xe2, 0xf0, 0x65, 0xe5, 0xea,
  0xd8, 0x01, 0x4f, 0x49, 0x94, 0xa2, 0x30, 0xb2, 0x61, 0xaa, 0xd8, 0xc4,
  0xd9, 0xde, 0x55, 0x14, 0xfb, 0xd9, 0xa6, 0x0b, 0x72, 0xd4, 0x19, 0x96,
  0xd7, 0x8f, 0x35, 0x14, 0xfe, 0x99, 0x21, 0xdd, 0x0a, 0xa7, 0xa2, 0xf5,
  0xc7, 0x53, 0xe2, 0x1f, 0xf0, 0xca, 0x71, 0xea, 0xf4, 0x58, 0xba, 0x1a,
  0x96, 0x4e, 0x3f, 0xe3, 0xe6, 0xc5, 0xbd, 0x97, 0xe2, 0x59, 0xe0, 0x12,
  0x03, 0x00, 0x09, 0x4a, 0x35, 0xf6, 0xda, 0xcf, 0x78, 0x60, 0xd1, 0x1d,
  0xd5, 0x52, 0xda, 0xfd, 0x7a, 0xa9, 0x63, 0x25, 0x54, 0x9e, 0x09, 0xfa,
  0xaf, 0x49, 0xa0, 0x57, 0x9c, 0x20, 0x64, 0x6a, 0x23, 0x21, 0x30, 0xdd,
  0x61, 0xe9, 0x6f, 0xd9, 0x2e, 0xb7, 0x93, 0xdb, 0xc4, 0xb4, 0x6b, 0x5f,
  0xb7, 0xc4, 0xfe, 0xe7, 0x6e, 0xe1, 0x20, 0x95, 0xf0, 0x1a, 0x6a, 0x19,
  0x9c, 0xd7, 0x96, 0xec, 0x3b, 0x65, 0x42, 0xea, 0xa6, 0x42, 0xef, 0xb8,
  0xf3, 0xea, 0x04, 0x42, 0x3e, 0xd2, 0x0f, 0xcb, 0x2b, 0xc7, 0x6d, 0x14,
  0x64, 0x49, 0x63, 0x2b, 0x42, 0x44, 0x4d, 0xf1, 0x5a, 0x98, 0x3b, 0x90,
  0xeb, 0xfa, 0x9f, 0xdc, 0x98, 0x9f, 0x34, 0xa0, 0xf8, 0xbd, 0x43, 0x97,
  0xfe, 0xc0, 0x8c, 0x9d, 0xb0, 0x8c, 0xe1, 0xb6, 0x59, 0xf3, 0x42, 0x50,
  0xb6, 0xe7, 0x47, 0x15, 0x6a, 0x72, 0x4c, 0x05, 0x21, 0xfc, 0x33, 0xcd,
  0xdf, 0xac, 0xfc, 0x4f, 0x22, 0x4c, 0x77, 0x1e, 0x41, 0x98, 0xa8, 0xdc,
  0x4c, 0x1d, 0x04, 0x31, 0xb4, 0x2d, 0x2a, 0xb2, 0x42, 0xc9, 0x08, 0x0a,
  0x34, 0x24, 0xaa, 0x41, 0xa2, 0x64, 0x69, 0xf7, 0xd5, 0xe7, 0x5c, 0x59,
  0x9e, 0xb0, 0xb1, 0xf2, 0x7c, 0x6f, 0xea, 0xec, 0x22, 0x5e, 0xdd, 0xa7,
  0x97, 0x6f, 0xd0, 0x50, 0xe2, 0x5f, 0x66, 0x45, 0x65, 0xd2, 0x30, 0xcd,
  0xd4, 0x64, 0x00, 0xe3, 0xe5, 0x6a, 0x01, 0x20, 0x2a, 0x45, 0x35, 0x70,
  0x29, 0xf3, 0xe5, 0x01, 0xce, 0x1c, 0xe4, 0xae, 0xc3, 0x96, 0x03, 0xd1,
  0x3b, 0x94, 0xb2, 0x87, 0x9a, 0x2d, 0xdc, 0x8d, 0x13, 0x34, 0xd0, 0x4b,
  0x06, 0xd0, 0x56, 0xd9, 0x2d, 0x37, 0xb0, 0x3f, 0x31, 0xd3, 0x00, 0xc0,
  0x57, 0xda, 0xc7, 0x13, 0x88, 0x5e, 0x3e, 0x3e, 0x54, 0x1b, 0x90, 0xab,
  0x0a, 0x77, 0x78, 0xa8, 0x71, 0xf6, 0x20, 0x1a, 0x23, 0x68, 0x23, 0xed,
  0xb1, 0x90, 0xef, 0xa4, 0xd9, 0xab, 0xa7, 0xfb, 0xdb, 0xcf, 0x91, 0xb4,
  0x66, 0xee, 0x09, 0x23, 0x92, 0xac, 0x92, 0xf1, 0x20, 0x32, 0x74, 0xa5,
  0xd3, 0x1d, 0x09, 0xc7, 0xd8, 0x32, 0x42, 0x32, 0x7a, 0x9b, 0xaa, 0x7a,
  0x9c, 0xe0, 0xa7, 0x1c, 0x4d, 0xb2, 0x6c, 0x7b, 0xd3, 0x5f, 0xa0, 0xc8,
  0xfb, 0xae, 0x66, 0xec, 0x7f, 0xce, 0xd8, 0x52, 0xfa, 0xbf, 0xb1, 0xfa,
  0x5a, 0xa5, 0x90, 0x95, 0x19, 0xec, 0x0d, 0x24, 0x20, 0xf3, 0x26, 0xba,
  0x2f, 0x30, 0x53, 0x0d, 0x2d, 0x22, 0x3d, 0x91, 0x5a, 0x9d, 0x2c, 0x14,
  0xfb, 0xc7, 0xd0, 0xe4, 0xbb, 0x18, 0xd2, 0xd1, 0x36, 0xf1, 0x13, 0xfa,
  0xfb, 0xb7, 0xda, 0xf1, 0x57, 0xde, 0xd3, 0xa7, 0x23, 0x96, 0x96, 0xd6,
  0x15, 0x32, 0xd2, 0x23, 0x9f, 0xc2, 0x2d, 0xd4, 0x9b, 0xb9, 0x26, 0xcb,
  0x29, 0xd4, 0xe7, 0x51, 0xaa, 0x4e, 0x25, 0xfa, 0x54, 0xb7, 0xd9, 0xbe,
  0x1f, 0xe2, 0x30, 0x59, 0x50, 0x57, 0xd6, 0xcd, 0x59, 0x20, 0xe9, 0xd0,
  0x68, 0xd0, 0x4a, 0xa7, 0xd2, 0xa9, 0x16, 0x62, 0xba, 0x36, 0xc8, 0xa4,
  0x69, 0xbb, 0xa0, 0xbf, 0x1e, 0xf0, 0xb6, 0xe9, 0xa2, 0xfc, 0x15, 0x03,
  0x6a, 0x66, 0xa0, 0xe3, 0x3d, 0x90, 0x37, 0x0a, 0xb5, 0xf5, 0xfd, 0xd8,
  0x96, 0xd4, 0x9e, 0xaf, 0xaa, 0xc4, 0x07, 0xbc, 0xc1, 0x2c, 0xc7, 0x5f,
  0xc2, 0x5a, 0xce, 0x9c, 0xfb, 0xdf, 0x9a, 0xb1, 0x35, 0xce, 0xb7, 0x99,
  0x71, 0x5a, 0x20, 0xfb, 0x57, 0x07, 0xc7, 0xed, 0xd9, 0x21, 0xf0, 0x51,
  0x4d, 0xa4, 0x5a, 0x4e, 0xfe, 0xfd, 0xd0, 0xfc, 0x9f, 0xc2, 0x20, 0xd4,
  0x96, 0x59, 0xa5, 0xf9, 0x02, 0xb5, 0xcf, 0x27, 0x5a, 0xb1, 0x10, 0x60,
  0xb7, 0x09, 0x27, 0x96, 0x76, 0xfd, 0xff, 0xff, 0x04, 0x00, 0x00, 0x00,
  0x50, 0x00, 0x00, 0x00, 0x84, 0xff, 0xff, 0xff, 0xbc, 0xff, 0xff, 0xff,
  0xd1, 0xff, 0xff, 0xff, 0xb6, 0x00, 0x00, 0x00, 0xe4, 0xff, 0xff, 0xff,
  0x00, 0x00, 0x00, 0x00, 0x1e, 0x00, 0x00, 0x00, 0x0e, 0x00, 0x00, 0x00,
  0xcb, 0xff, 0xff, 0xff, 0xf8, 0xff, 0xff, 0xff, 0x43, 0x00, 0x00, 0x00,
  0xf9, 0xff, 0xff, 0xff, 0xb1, 0xff, 0xff, 0xff, 0x66, 0x00, 0x00, 0x00,
  0x42, 0x00, 0x00, 0x00, 0xd5, 0xff, 0xff, 0xff, 0xca, 0xff, 0xff, 0xff,
  0xe2, 0xff, 0xff, 0xff, 0x00, 0x00, 0x00, 0x00, 0xf8, 0xff, 0xff, 0xff,
  0xd2, 0xfd, 0xff, 0xff, 0x04, 0x00, 0x00, 0x00, 0xc8, 0x00, 0x00, 0x00,
  0x29, 0xb4, 0xb7, 0x0d, 0x62, 0x10, 0x72, 0x95, 0xfa, 0xcc, 0x17, 0x18,
  0x41, 0x71, 0x36, 0xab, 0x00, 0xea, 0xb8, 0x1d, 0xcb, 0x97, 0x51, 0x58,
  0x35, 0xd6, 0xd4, 0xab, 0xab, 0x13, 0xd8, 0xd7, 0x47, 0x23, 0x55, 0x62,
  0xda, 0x2f, 0xd3, 0xe1, 0xea, 0xa1, 0xf5, 0x6d, 0xc7, 0xc4, 0xd3, 0x0d,
  0xcf, 0xf4, 0x18, 0x2c, 0xe9, 0xaf, 0xe9, 0xb6, 0x59, 0x9f, 0x9a, 0xae,
  0x3b, 0x14, 0x66, 0xfa, 0xc5, 0x4e, 0xd1, 0xde, 0xef, 0x4b, 0x73, 0x3c,
  0xb5, 0xa3, 0x09, 0xd6, 0xe5, 0xd4, 0x6b, 0x56, 0xcb, 0x41, 0x98, 0xc0,
  0xb1, 0x47, 0xe3, 0x1b, 0xa9, 0x3e, 0x63, 0x40, 0xe5, 0x23, 0x1d, 0x9f,
  0xc3, 0x64, 0x4a, 0x33, 0xae, 0x43, 0xbe, 0x4a, 0xda, 0x89, 0xee, 0x4d,
  0x81, 0xd0, 0x44, 0x35, 0xd3, 0x51, 0xe0, 0xbe, 0xe9, 0x42, 0xbb, 0x0c,
  0x5d, 0x2e, 0xce, 0xbc, 0x5b, 0x50, 0x1b, 0xed, 0xf3, 0x03, 0x4f, 0x37,
  0xb8, 0xd9, 0x19, 0xef, 0x3d, 0xf0, 0xf0, 0xd8, 0xf2, 0x57, 0x2b, 0x4d,
  0xee, 0x58, 0x52, 0x88, 0x6d, 0xe2, 0xbd, 0x6c, 0x44, 0xe6, 0x93, 0x2f,
  0x58, 0xfe, 0x0e, 0x5d, 0x41, 0x25, 0x33, 0x3b, 0x53, 0x22, 0x8b, 0xdf,
  0xdb, 0x0d, 0x59, 0x0f, 0xfc, 0x94, 0xd7, 0x5e, 0xa7, 0x41, 0xd0, 0xe7,
  0x33, 0xb4, 0xed, 0x0e, 0x4d, 0x67, 0xea, 0x0b, 0x4c, 0xa2, 0xc1, 0x2f,
  0xba, 0xd1, 0x38, 0xea, 0xf6, 0x5a, 0x03, 0x4e, 0xa6, 0xfe, 0xff, 0xff,
  0x04, 0x00, 0x00, 0x00, 0x28, 0x00, 0x00, 0x00, 0x52, 0x00, 0x00, 0x00,
  0x98, 0x01, 0x00, 0x00, 0xcf, 0xff, 0xff, 0xff, 0xd0, 0x00, 0x00, 0x00,
  0x71, 0xff, 0xff, 0xff, 0x92, 0x00, 0x00, 0x00, 0x50, 0x01, 0x00, 0x00,
  0xa7, 0xff, 0xff, 0xff, 0xbf, 0xff, 0xff, 0xff, 0x5a, 0x00, 0x00, 0x00,
  0xda, 0xfe, 0xff, 0xff, 0x04, 0x00, 0x00, 0x00, 0x32, 0x00, 0x00, 0x00,
  0x42, 0xe8, 0xad, 0x2a, 0x85, 0xff, 0x34, 0x93, 0x3a, 0x11, 0x3f, 0x7e,
  0x10, 0x00, 0x92, 0x7b, 0xd1, 0x39, 0x5d, 0x35, 0x94, 0xfb, 0xe0, 0x99,
  0x95, 0x64, 0x78, 0x0c, 0x2c, 0x29, 0x0d, 0x7f, 0x87, 0x55, 0xc3, 0xe3,
  0xcd, 0xb4, 0xe8, 0xc5, 0x55, 0x93, 0x8c, 0x36, 0x92, 0x1d, 0x57, 0x8a,
  0xff, 0x58, 0x00, 0x00, 0x1a, 0xff, 0xff, 0xff, 0x04, 0x00, 0x00, 0x00,
  0x14, 0x00, 0x00, 0x00, 0x43, 0xfe, 0xff, 0xff, 0x60, 0xff, 0xff, 0xff,
  0x1a, 0x00, 0x00, 0x00, 0x49, 0xff, 0xff, 0xff, 0xda, 0x01, 0x00, 0x00,
  0x3a, 0xff, 0xff, 0xff, 0x04, 0x00, 0x00, 0x00, 0x0a, 0x00, 0x00, 0x00,
  0xc3, 0xc8, 0xb0, 0xc5, 0x83, 0xbe, 0x81, 0x89, 0xa1, 0xc4, 0x00, 0x00,
  0x52, 0xff, 0xff, 0xff, 0x04, 0x00, 0x00, 0x00, 0x08, 0x00, 0x00, 0x00,
  0xeb, 0xfe, 0xff, 0xff, 0x15, 0x01, 0x00, 0x00, 0x34, 0xff, 0xff, 0xff,
  0x38, 0xff, 0xff, 0xff, 0x0f, 0x00, 0x00, 0x00, 0x4d, 0x4c, 0x49, 0x52,
  0x20, 0x43, 0x6f, 0x6e, 0x76, 0x65, 0x72, 0x74, 0x65, 0x64, 0x2e, 0x00,
  0x01, 0x00, 0x00, 0x00, 0x14, 0x00, 0x00, 0x00, 0x00, 0x00, 0x0e, 0x00,
  0x18, 0x00, 0x14, 0x00, 0x10, 0x00, 0x0c, 0x00, 0x08, 0x00, 0x04, 0x00,
  0x0e, 0x00, 0x00, 0x00, 0x14, 0x00, 0x00, 0x00, 0x1c, 0x00, 0x00, 0x00,
  0x60, 0x01, 0x00, 0x00, 0x64, 0x01, 0x00, 0x00, 0x68, 0x01, 0x00, 0x00,
  0x04, 0x00, 0x00, 0x00, 0x6d, 0x61, 0x69, 0x6e, 0x00, 0x00, 0x00, 0x00,
  0x05, 0x00, 0x00, 0x00, 0x08, 0x01, 0x00, 0x00, 0xc0, 0x00, 0x00, 0x00,
  0x88, 0x00, 0x00, 0x00, 0x50, 0x00, 0x00, 0x00, 0x14, 0x00, 0x00, 0x00,
  0x00, 0x00, 0x0e, 0x00, 0x1a, 0x00, 0x14, 0x00, 0x10, 0x00, 0x0c, 0x00,
  0x0b, 0x00, 0x04, 0x00, 0x0e, 0x00, 0x00, 0x00, 0x1c, 0x00, 0x00, 0x00,
  0x00, 0x00, 0x00, 0x09, 0x1c, 0x00, 0x00, 0x00, 0x20, 0x00, 0x00, 0x00,
  0x01, 0x00, 0x00, 0x00, 0x00, 0x00, 0x06, 0x00, 0x08, 0x00, 0x04, 0x00,
  0x06, 0x00, 0x00, 0x00, 0x00, 0x00, 0x80, 0x3f, 0x01, 0x00, 0x00, 0x00,
  0x0d, 0x00, 0x00, 0x00, 0x01, 0x00, 0x00, 0x00, 0x0c, 0x00, 0x00, 0x00,
  0x62, 0xff, 0xff, 0xff, 0x14, 0x00, 0x00, 0x00, 0x00, 0x00, 0x00, 0x08,
  0x10, 0x00, 0x00, 0x00, 0x14, 0x00, 0x00, 0x00, 0x04, 0x00, 0x04, 0x00,
  0x04, 0x00, 0x00, 0x00, 0x01, 0x00, 0x00, 0x00, 0x0c, 0x00, 0x00, 0x00,
  0x03, 0x00, 0x00, 0x00, 0x0b, 0x00, 0x00, 0x00, 0x02, 0x00, 0x00, 0x00,
  0x01, 0x00, 0x00, 0x00, 0x96, 0xff, 0xff, 0xff, 0x10, 0x00, 0x00, 0x00,
  0x00, 0x00, 0x00, 0x08, 0x10, 0x00, 0x00, 0x00, 0x14, 0x00, 0x00, 0x00,
  0x86, 0xff, 0xff, 0xff, 0x00, 0x00, 0x00, 0x01, 0x01, 0x00, 0x00, 0x00,
  0x0b, 0x00, 0x00, 0x00, 0x03, 0x00, 0x00, 0x00, 0x0a, 0x00, 0x00, 0x00,
  0x04, 0x00, 0x00, 0x00, 0x03, 0x00, 0x00, 0x00, 0xca, 0xff, 0xff, 0xff,
  0x10, 0x00, 0x00, 0x00, 0x00, 0x00, 0x00, 0x08, 0x10, 0x00, 0x00, 0x00,
  0x14, 0x00, 0x00, 0x00, 0xba, 0xff, 0xff, 0xff, 0x00, 0x00, 0x00, 0x01,
  0x01, 0x00, 0x00, 0x00, 0x0a, 0x00, 0x00, 0x00, 0x03, 0x00, 0x00, 0x00,
  0x09, 0x00, 0x00, 0x00, 0x06, 0x00, 0x00, 0x00, 0x05, 0x00, 0x00, 0x00,
  0x00, 0x00, 0x0e, 0x00, 0x16, 0x00, 0x00, 0x00, 0x10, 0x00, 0x0c, 0x00,
  0x0b, 0x00, 0x04, 0x00, 0x0e, 0x00, 0x00, 0x00, 0x18, 0x00, 0x00, 0x00,
  0x00, 0x00, 0x00, 0x08, 0x18, 0x00, 0x00, 0x00, 0x1c, 0x00, 0x00, 0x00,
  0x00, 0x00, 0x06, 0x00, 0x08, 0x00, 0x07, 0x00, 0x06, 0x00, 0x00, 0x00,
  0x00, 0x00, 0x00, 0x01, 0x01, 0x00, 0x00, 0x00, 0x09, 0x00, 0x00, 0x00,
  0x03, 0x00, 0x00, 0x00, 0x00, 0x00, 0x00, 0x00, 0x08, 0x00, 0x00, 0x00,
  0x07, 0x00, 0x00, 0x00, 0x01, 0x00, 0x00, 0x00, 0x0d, 0x00, 0x00, 0x00,
  0x01, 0x00, 0x00, 0x00, 0x00, 0x00, 0x00, 0x00, 0x0e, 0x00, 0x00, 0x00,
  0x84, 0x06, 0x00, 0x00, 0xf4, 0x05, 0x00, 0x00, 0x88, 0x05, 0x00, 0x00,
  0x0c, 0x05, 0x00, 0x00, 0xa0, 0x04, 0x00, 0x00, 0x24, 0x04, 0x00, 0x00,
  0xb8, 0x03, 0x00, 0x00, 0x44, 0x03, 0x00, 0x00, 0xd8, 0x02, 0x00, 0x00,
  0x3c, 0x02, 0x00, 0x00, 0x98, 0x01, 0x00, 0x00, 0xf4, 0x00, 0x00, 0x00,
  0x70, 0x00, 0x00, 0x00, 0x04, 0x00, 0x00, 0x00, 0xca, 0xf9, 0xff, 0xff,
  0x00, 0x00, 0x00, 0x01, 0x14, 0x00, 0x00, 0x00, 0x30, 0x00, 0x00, 0x00,
  0x0e, 0x00, 0x00, 0x00, 0x00, 0x00, 0x00, 0x09, 0x44, 0x00, 0x00, 0x00,
  0xb4, 0xf9, 0xff, 0xff, 0x08, 0x00, 0x00, 0x00, 0x10, 0x00, 0x00, 0x00,
  0x01, 0x00, 0x00, 0x00, 0x80, 0xff, 0xff, 0xff, 0xff, 0xff, 0xff, 0xff,
  0x01, 0x00, 0x00, 0x00, 0x00, 0x00, 0x80, 0x3b, 0x19, 0x00, 0x00, 0x00,
  0x53, 0x74, 0x61, 0x74, 0x65, 0x66, 0x75, 0x6c, 0x50, 0x61, 0x72, 0x74,
  0x69, 0x74, 0x69, 0x6f, 0x6e, 0x65, 0x64, 0x43, 0x61, 0x6c, 0x6c, 0x3a,
  0x30, 0x00, 0x00, 0x00, 0x02, 0x00, 0x00, 0x00, 0x01, 0x00, 0x00, 0x00,
  0x02, 0x00, 0x00, 0x00, 0x32, 0xfa, 0xff, 0xff, 0x00, 0x00, 0x00, 0x01,
  0x14, 0x00, 0x00, 0x00, 0x30, 0x00, 0x00, 0x00, 0x0d, 0x00, 0x00, 0x00,
  0x00, 0x00, 0x00, 0x09, 0x5c, 0x00, 0x00, 0x00, 0x1c, 0xfa, 0xff, 0xff,
  0x08, 0x00, 0x00, 0x00, 0x10, 0x00, 0x00, 0x00, 0x01, 0x00, 0x00, 0x00,
  0x7f, 0x00, 0x00, 0x00, 0x00, 0x00, 0x00, 0x00, 0x01, 0x00, 0x00, 0x00,
  0x24, 0x9e, 0xcc, 0x3c, 0x32, 0x00, 0x00, 0x00, 0x73, 0x65, 0x71, 0x75,
  0x65, 0x6e, 0x74, 0x69, 0x61, 0x6c, 0x2f, 0x79, 0x5f, 0x70, 0x72, 0x65,
  0x64, 0x2f, 0x4d, 0x61, 0x74, 0x4d, 0x75, 0x6c, 0x3b, 0x73, 0x65, 0x71,
  0x75, 0x65, 0x6e, 0x74, 0x69, 0x61, 0x6c, 0x2f, 0x79, 0x5f, 0x70, 0x72,
  0x65, 0x64, 0x2f, 0x42, 0x69, 0x61, 0x73, 0x41, 0x64, 0x64, 0x00, 0x00,
  0x02, 0x00, 0x00, 0x00, 0x01, 0x00, 0x00, 0x00, 0x02, 0x00, 0x00, 0x00,
  0xb2, 0xfa, 0xff, 0xff, 0x00, 0x00, 0x00, 0x01, 0x14, 0x00, 0x00, 0x00,
  0x34, 0x00, 0x00, 0x00, 0x0c, 0x00, 0x00, 0x00, 0x00, 0x00, 0x00, 0x09,
  0x7c, 0x00, 0x00, 0x00, 0x9c, 0xfa, 0xff, 0xff, 0x08, 0x00, 0x00, 0x00,
  0x14, 0x00, 0x00, 0x00, 0x01, 0x00, 0x00, 0x00, 0x80, 0xff, 0xff, 0xff,
  0xff, 0xff, 0xff, 0xff, 0x00, 0x00, 0x00, 0x00, 0x01, 0x00, 0x00, 0x00,
  0x13, 0x0a, 0xae, 0x3c, 0x4c, 0x00, 0x00, 0x00, 0x73, 0x65, 0x71, 0x75,
  0x65, 0x6e, 0x74, 0x69, 0x61, 0x6c, 0x2f, 0x64, 0x65, 0x6e, 0x73, 0x65,
  0x5f, 0x32, 0x2f, 0x4d, 0x61, 0x74, 0x4d, 0x75, 0x6c, 0x3b, 0x73, 0x65,
  0x71, 0x75, 0x65, 0x6e, 0x74, 0x69, 0x61, 0x6c, 0x2f, 0x64, 0x65, 0x6e,
  0x73, 0x65, 0x5f, 0x32, 0x2f, 0x52, 0x65, 0x6c, 0x75, 0x3b, 0x73, 0x65,
  0x71, 0x75, 0x65, 0x6e, 0x74, 0x69, 0x61, 0x6c, 0x2f, 0x64, 0x65, 0x6e,
  0x73, 0x65, 0x5f, 0x32, 0x2f, 0x42, 0x69, 0x61, 0x73, 0x41, 0x64, 0x64,
  0x00, 0x00, 0x00, 0x00, 0x02, 0x00, 0x00, 0x00, 0x01, 0x00, 0x00, 0x00,
  0x05, 0x00, 0x00, 0x00, 0x52, 0xfb, 0xff, 0xff, 0x00, 0x00, 0x00, 0x01,
  0x14, 0x00, 0x00, 0x00, 0x34, 0x00, 0x00, 0x00, 0x0b, 0x00, 0x00, 0x00,
  0x00, 0x00, 0x00, 0x09, 0x7c, 0x00, 0x00, 0x00, 0x3c, 0xfb, 0xff, 0xff,
  0x08, 0x00, 0x00, 0x00, 0x14, 0x00, 0x00, 0x00, 0x01, 0x00, 0x00, 0x00,
  0x80, 0xff, 0xff, 0xff, 0xff, 0xff, 0xff, 0xff, 0x00, 0x00, 0x00, 0x00,
  0x01, 0x00, 0x00, 0x00, 0x79, 0x83, 0xca, 0x3c, 0x4c, 0x00, 0x00, 0x00,
  0x73, 0x65, 0x71, 0x75, 0x65, 0x6e, 0x74, 0x69, 0x61, 0x6c, 0x2f, 0x64,
  0x65, 0x6e, 0x73, 0x65, 0x5f, 0x31, 0x2f, 0x4d, 0x61, 0x74, 0x4d, 0x75,
  0x6c, 0x3b, 0x73, 0x65, 0x71, 0x75, 0x65, 0x6e, 0x74, 0x69, 0x61, 0x6c,
  0x2f, 0x64, 0x65, 0x6e, 0x73, 0x65, 0x5f, 0x31, 0x2f, 0x52, 0x65, 0x6c,
  0x75, 0x3b, 0x73, 0x65, 0x71, 0x75, 0x65, 0x6e, 0x74, 0x69, 0x61, 0x6c,
  0x2f, 0x64, 0x65, 0x6e, 0x73, 0x65, 0x5f, 0x31, 0x2f, 0x42, 0x69, 0x61,
  0x73, 0x41, 0x64, 0x64, 0x00, 0x00, 0x00, 0x00, 0x02, 0x00, 0x00, 0x00,
  0x01, 0x00, 0x00, 0x00, 0x0a, 0x00, 0x00, 0x00, 0xf2, 0xfb, 0xff, 0xff,
  0x00, 0x00, 0x00, 0x01, 0x14, 0x00, 0x00, 0x00, 0x34, 0x00, 0x00, 0x00,
  0x0a, 0x00, 0x00, 0x00, 0x00, 0x00, 0x00, 0x09, 0x74, 0x00, 0x00, 0x00,
  0xdc, 0xfb, 0xff, 0xff, 0x08, 0x00, 0x00, 0x00, 0x14, 0x00, 0x00, 0x00,
  0x01, 0x00, 0x00, 0x00, 0x80, 0xff, 0xff, 0xff, 0xff, 0xff, 0xff, 0xff,
  0x00, 0x00, 0x00, 0x00, 0x01, 0x00, 0x00, 0x00, 0xcf, 0x5e, 0x41, 0x3d,
  0x46, 0x00, 0x00, 0x00, 0x73, 0x65, 0x71, 0x75, 0x65, 0x6e, 0x74, 0x69,
  0x61, 0x6c, 0x2f, 0x64, 0x65, 0x6e, 0x73, 0x65, 0x2f, 0x4d, 0x61, 0x74,
  0x4d, 0x75, 0x6c, 0x3b, 0x73, 0x65, 0x71, 0x75, 0x65, 0x6e, 0x74, 0x69,
  0x61, 0x6c, 0x2f, 0x64, 0x65, 0x6e, 0x73, 0x65, 0x2f, 0x52, 0x65, 0x6c,
  0x75, 0x3b, 0x73, 0x65, 0x71, 0x75, 0x65, 0x6e, 0x74, 0x69, 0x61, 0x6c,
  0x2f, 0x64, 0x65, 0x6e, 0x73, 0x65, 0x2f, 0x42, 0x69, 0x61, 0x73, 0x41,
  0x64, 0x64, 0x00, 0x00, 0x02, 0x00, 0x00, 0x00, 0x01, 0x00, 0x00, 0x00,
  0x14, 0x00, 0x00, 0x00, 0x8a, 0xfc, 0xff, 0xff, 0x00, 0x00, 0x00, 0x01,
  0x14, 0x00, 0x00, 0x00, 0x34, 0x00, 0x00, 0x00, 0x09, 0x00, 0x00, 0x00,
  0x00, 0x00, 0x00, 0x09, 0x44, 0x00, 0x00, 0x00, 0x74, 0xfc, 0xff, 0xff,
  0x08, 0x00, 0x00, 0x00, 0x14, 0x00, 0x00, 0x00, 0x01, 0x00, 0x00, 0x00,
  0x00, 0x00, 0x00, 0x00, 0x00, 0x00, 0x00, 0x00, 0x00, 0x00, 0x00, 0x00,
  0x01, 0x00, 0x00, 0x00, 0xfc, 0x5c, 0x38, 0x3b, 0x17, 0x00, 0x00, 0x00,
  0x73, 0x65, 0x71, 0x75, 0x65, 0x6e, 0x74, 0x69, 0x61, 0x6c, 0x2f, 0x64,
  0x65, 0x6e, 0x73, 0x65, 0x2f, 0x4d, 0x61, 0x74, 0x4d, 0x75, 0x6c, 0x00,
  0x02, 0x00, 0x00, 0x00, 0x14, 0x00, 0x00, 0x00, 0x25, 0x00, 0x00, 0x00,
  0xf2, 0xfc, 0xff, 0xff, 0x00, 0x00, 0x00, 0x01, 0x14, 0x00, 0x00, 0x00,
  0x30, 0x00, 0x00, 0x00, 0x08, 0x00, 0x00, 0x00, 0x00, 0x00, 0x00, 0x02,
  0x50, 0x00, 0x00, 0x00, 0xdc, 0xfc, 0xff, 0xff, 0x08, 0x00, 0x00, 0x00,
  0x10, 0x00, 0x00, 0x00, 0x01, 0x00, 0x00, 0x00, 0x00, 0x00, 0x00, 0x00,
  0x00, 0x00, 0x00, 0x00, 0x01, 0x00, 0x00, 0x00, 0xf0, 0xad, 0xb5, 0x39,
  0x27, 0x00, 0x00, 0x00, 0x73, 0x65, 0x71, 0x75, 0x65, 0x6e, 0x74, 0x69,
  0x61, 0x6c, 0x2f, 0x64, 0x65, 0x6e, 0x73, 0x65, 0x2f, 0x42, 0x69, 0x61,
  0x73, 0x41, 0x64, 0x64, 0x2f, 0x52, 0x65, 0x61, 0x64, 0x56, 0x61, 0x72,
  0x69, 0x61, 0x62, 0x6c, 0x65, 0x4f, 0x70, 0x00, 0x01, 0x00, 0x00, 0x00,
  0x14, 0x00, 0x00, 0x00, 0x62, 0xfd, 0xff, 0xff, 0x00, 0x00, 0x00, 0x01,
  0x14, 0x00, 0x00, 0x00, 0x30, 0x00, 0x00, 0x00, 0x07, 0x00, 0x00, 0x00,
  0x00, 0x00, 0x00, 0x09, 0x44, 0x00, 0x00, 0x00, 0x4c, 0xfd, 0xff, 0xff,
  0x08, 0x00, 0x00, 0x00, 0x10, 0x00, 0x00, 0x00, 0x01, 0x00, 0x00, 0x00,
  0x00, 0x00, 0x00, 0x00, 0x00, 0x00, 0x00, 0x00, 0x01, 0x00, 0x00, 0x00,
  0xda, 0xbf, 0x76, 0x3b, 0x19, 0x00, 0x00, 0x00, 0x73, 0x65, 0x71, 0x75,
  0x65, 0x6e, 0x74, 0x69, 0x61, 0x6c, 0x2f, 0x64, 0x65, 0x6e, 0x73, 0x65,
  0x5f, 0x31, 0x2f, 0x4d, 0x61, 0x74, 0x4d, 0x75, 0x6c, 0x00, 0x00, 0x00,
  0x02, 0x00, 0x00, 0x00, 0x0a, 0x00, 0x00, 0x00, 0x14, 0x00, 0x00, 0x00,
  0xca, 0xfd, 0xff, 0xff, 0x00, 0x00, 0x00, 0x01, 0x14, 0x00, 0x00, 0x00,
  0x34, 0x00, 0x00, 0x00, 0x06, 0x00, 0x00, 0x00, 0x00, 0x00, 0x00, 0x02,
  0x58, 0x00, 0x00, 0x00, 0xb4, 0xfd, 0xff, 0xff, 0x08, 0x00, 0x00, 0x00,
  0x14, 0x00, 0x00, 0x00, 0x01, 0x00, 0x00, 0x00, 0x00, 0x00, 0x00, 0x00,
  0x00, 0x00, 0x00, 0x00, 0x00, 0x00, 0x00, 0x00, 0x01, 0x00, 0x00, 0x00,
  0x05, 0x62, 0x3a, 0x39, 0x29, 0x00, 0x00, 0x00, 0x73, 0x65, 0x71, 0x75,
  0x65, 0x6e, 0x74, 0x69, 0x61, 0x6c, 0x2f, 0x64, 0x65, 0x6e, 0x73, 0x65,
  0x5f, 0x31, 0x2f, 0x42, 0x69, 0x61, 0x73, 0x41, 0x64, 0x64, 0x2f, 0x52,
  0x65, 0x61, 0x64, 0x56, 0x61, 0x72, 0x69, 0x61, 0x62, 0x6c, 0x65, 0x4f,
  0x70, 0x00, 0x00, 0x00, 0x01, 0x00, 0x00, 0x00, 0x0a, 0x00, 0x00, 0x00,
  0x42, 0xfe, 0xff, 0xff, 0x00, 0x00, 0x00, 0x01, 0x14, 0x00, 0x00, 0x00,
  0x30, 0x00, 0x00, 0x00, 0x05, 0x00, 0x00, 0x00, 0x00, 0x00, 0x00, 0x09,
  0x44, 0x00, 0x00, 0x00, 0x2c, 0xfe, 0xff, 0xff, 0x08, 0x00, 0x00, 0x00,
  0x10, 0x00, 0x00, 0x00, 0x01, 0x00, 0x00, 0x00, 0x00, 0x00, 0x00, 0x00,
  0x00, 0x00, 0x00, 0x00, 0x01, 0x00, 0x00, 0x00, 0xf4, 0x13, 0xa0, 0x3b,
  0x19, 0x00, 0x00, 0x00, 0x73, 0x65, 0x71, 0x75, 0x65, 0x6e, 0x74, 0x69,
  0x61, 0x6c, 0x2f, 0x64, 0x65, 0x6e, 0x73, 0x65, 0x5f, 0x32, 0x2f, 0x4d,
  0x61, 0x74, 0x4d, 0x75, 0x6c, 0x00, 0x00, 0x00, 0x02, 0x00, 0x00, 0x00,
  0x05, 0x00, 0x00, 0x00, 0x0a, 0x00, 0x00, 0x00, 0xaa, 0xfe, 0xff, 0xff,
  0x00, 0x00, 0x00, 0x01, 0x14, 0x00, 0x00, 0x00, 0x34, 0x00, 0x00, 0x00,
  0x04, 0x00, 0x00, 0x00, 0x00, 0x00, 0x00, 0x02, 0x58, 0x00, 0x00, 0x00,
  0x94, 0xfe, 0xff, 0xff, 0x08, 0x00, 0x00, 0x00, 0x14, 0x00, 0x00, 0x00,
  0x01, 0x00, 0x00, 0x00, 0x00, 0x00, 0x00, 0x00, 0x00, 0x00, 0x00, 0x00,
  0x00, 0x00, 0x00, 0x00, 0x01, 0x00, 0x00, 0x00, 0xe9, 0x43, 0xfd, 0x38,
  0x29, 0x00, 0x00, 0x00, 0x73, 0x65, 0x71, 0x75, 0x65, 0x6e, 0x74, 0x69,
  0x61, 0x6c, 0x2f, 0x64, 0x65, 0x6e, 0x73, 0x65, 0x5f, 0x32, 0x2f, 0x42,
  0x69, 0x61, 0x73, 0x41, 0x64, 0x64, 0x2f, 0x52, 0x65, 0x61, 0x64, 0x56,
  0x61, 0x72, 0x69, 0x61, 0x62, 0x6c, 0x65, 0x4f, 0x70, 0x00, 0x00, 0x00,
  0x01, 0x00, 0x00, 0x00, 0x05, 0x00, 0x00, 0x00, 0x22, 0xff, 0xff, 0xff,
  0x00, 0x00, 0x00, 0x01, 0x14, 0x00, 0x00, 0x00, 0x30, 0x00, 0x00, 0x00,
  0x03, 0x00, 0x00, 0x00, 0x00, 0x00, 0x00, 0x09, 0x44, 0x00, 0x00, 0x00,
  0x0c, 0xff, 0xff, 0xff, 0x08, 0x00, 0x00, 0x00, 0x10, 0x00, 0x00, 0x00,
  0x01, 0x00, 0x00, 0x00, 0x00, 0x00, 0x00, 0x00, 0x00, 0x00, 0x00, 0x00,
  0x01, 0x00, 0x00, 0x00, 0x6d, 0x48, 0xeb, 0x3b, 0x18, 0x00, 0x00, 0x00,
  0x73, 0x65, 0x71, 0x75, 0x65, 0x6e, 0x74, 0x69, 0x61, 0x6c, 0x2f, 0x79,
  0x5f, 0x70, 0x72, 0x65, 0x64, 0x2f, 0x4d, 0x61, 0x74, 0x4d, 0x75, 0x6c,
  0x00, 0x00, 0x00, 0x00, 0x02, 0x00, 0x00, 0x00, 0x02, 0x00, 0x00, 0x00,
  0x05, 0x00, 0x00, 0x00, 0x8a, 0xff, 0xff, 0xff, 0x00, 0x00, 0x00, 0x01,
  0x14, 0x00, 0x00, 0x00, 0x30, 0x00, 0x00, 0x00, 0x02, 0x00, 0x00, 0x00,
  0x00, 0x00, 0x00, 0x02, 0x54, 0x00, 0x00, 0x00, 0x74, 0xff, 0xff, 0xff,
  0x08, 0x00, 0x00, 0x00, 0x10, 0x00, 0x00, 0x00, 0x01, 0x00, 0x00, 0x00,
  0x00, 0x00, 0x00, 0x00, 0x00, 0x00, 0x00, 0x00, 0x01, 0x00, 0x00, 0x00,
  0x7c, 0xf4, 0x1f, 0x39, 0x28, 0x00, 0x00, 0x00, 0x73, 0x65, 0x71, 0x75,
  0x65, 0x6e, 0x74, 0x69, 0x61, 0x6c, 0x2f, 0x79, 0x5f, 0x70, 0x72, 0x65,
  0x64, 0x2f, 0x42, 0x69, 0x61, 0x73, 0x41, 0x64, 0x64, 0x2f, 0x52, 0x65,
  0x61, 0x64, 0x56, 0x61, 0x72, 0x69, 0x61, 0x62, 0x6c, 0x65, 0x4f, 0x70,
  0x00, 0x00, 0x00, 0x00, 0x01, 0x00, 0x00, 0x00, 0x02, 0x00, 0x00, 0x00,
  0x00, 0x00, 0x16, 0x00, 0x1c, 0x00, 0x18, 0x00, 0x17, 0x00, 0x10, 0x00,
  0x0c, 0x00, 0x08, 0x00, 0x00, 0x00, 0x00, 0x00, 0x00, 0x00, 0x07, 0x00,
  0x16, 0x00, 0x00, 0x00, 0x00, 0x00, 0x00, 0x01, 0x20, 0x00, 0x00, 0x00,
  0x40, 0x00, 0x00, 0x00, 0x01, 0x00, 0x00, 0x00, 0x00, 0x00, 0x00, 0x09,
  0x4c, 0x00, 0x00, 0x00, 0x0c, 0x00, 0x0c, 0x00, 0x00, 0x00, 0x00, 0x00,
  0x08, 0x00, 0x04, 0x00, 0x0c, 0x00, 0x00, 0x00, 0x08, 0x00, 0x00, 0x00,
  0x14, 0x00, 0x00, 0x00, 0x01, 0x00, 0x00, 0x00, 0x99, 0xff, 0xff, 0xff,
  0xff, 0xff, 0xff, 0xff, 0x00, 0x00, 0x00, 0x00, 0x01, 0x00, 0x00, 0x00,
  0xfe, 0x45, 0xfc, 0x3d, 0x13, 0x00, 0x00, 0x00, 0x73, 0x65, 0x72, 0x76,
  0x69, 0x6e, 0x67, 0x5f, 0x64, 0x65, 0x66, 0x61, 0x75, 0x6c, 0x74, 0x5f,
  0x78, 0x3a, 0x30, 0x00, 0x02, 0x00, 0x00, 0x00, 0x01, 0x00, 0x00, 0x00,
  0x25, 0x00, 0x00, 0x00, 0x02, 0x00, 0x00, 0x00, 0x24, 0x00, 0x00, 0x00,
  0x04, 0x00, 0x00, 0x00, 0xf0, 0xff, 0xff, 0xff, 0x19, 0x00, 0x00, 0x00,
  0x02, 0x00, 0x00, 0x00, 0x00, 0x00, 0x00, 0x19, 0x0c, 0x00, 0x10, 0x00,
  0x0f, 0x00, 0x00, 0x00, 0x08, 0x00, 0x04, 0x00, 0x0c, 0x00, 0x00, 0x00,
  0x09, 0x00, 0x00, 0x00, 0x04, 0x00, 0x00, 0x00, 0x00, 0x00, 0x00, 0x09
};
unsigned int tflite_learn_79_len = 4008;

#endif // _EI_CLASSIFIER_TFLITE_LEARN_79_H_

