/* Generated by Edge Impulse
 *
 * Permission is hereby granted, free of charge, to any person obtaining a copy
 * of this software and associated documentation files (the "Software"), to deal
 * in the Software without restriction, including without limitation the rights
 * to use, copy, modify, merge, publish, distribute, sublicense, and/or sell
 * copies of the Software, and to permit persons to whom the Software is
 * furnished to do so, subject to the following conditions:
 *
 * The above copyright notice and this permission notice shall be included in
 * all copies or substantial portions of the Software.
 *
 * THE SOFTWARE IS PROVIDED "AS IS", WITHOUT WARRANTY OF ANY KIND, EXPRESS OR
 * IMPLIED, INCLUDING BUT NOT LIMITED TO THE WARRANTIES OF MERCHANTABILITY,
 * FITNESS FOR A PARTICULAR PURPOSE AND NONINFRINGEMENT. IN NO EVENT SHALL THE
 * AUTHORS OR COPYRIGHT HOLDERS BE LIABLE FOR ANY CLAIM, DAMAGES OR OTHER
 * LIABILITY, WHETHER IN AN ACTION OF CONTRACT, TORT OR OTHERWISE, ARISING FROM,
 * OUT OF OR IN CONNECTION WITH THE SOFTWARE OR THE USE OR OTHER DEALINGS IN THE
 * SOFTWARE.
 */

#ifndef _EI_CLASSIFIER_TFLITE_LEARN_82_H_
#define _EI_CLASSIFIER_TFLITE_LEARN_82_H_

#define EI_CLASSIFIER_TFLITE_LEARN_82_ARENA_SIZE     2982
const size_t tflite_learn_82_arena_size = 2982;

#ifdef EI_CLASSIFIER_TFLITE_ARENA_SIZE
#if EI_CLASSIFIER_TFLITE_ARENA_SIZE < EI_CLASSIFIER_TFLITE_LEARN_82_ARENA_SIZE
#undef EI_CLASSIFIER_TFLITE_ARENA_SIZE
#define EI_CLASSIFIER_TFLITE_ARENA_SIZE EI_CLASSIFIER_TFLITE_LEARN_82_ARENA_SIZE
#endif // #if EI_CLASSIFIER_TFLITE_ARENA_SIZE < EI_CLASSIFIER_TFLITE_LEARN_82_ARENA_SIZE
#else
#define EI_CLASSIFIER_TFLITE_ARENA_SIZE EI_CLASSIFIER_TFLITE_LEARN_82_ARENA_SIZE
#endif // #ifdef EI_CLASSIFIER_TFLITE_ARENA_SIZE

#if defined __GNUC__
#define ALIGN(X) __attribute__((aligned(X)))
#elif defined _MSC_VER
#define ALIGN(X) __declspec(align(X))
#elif defined __TASKING__
#define ALIGN(X) __align(X)
#else
#define ALIGN(X)
#endif
ALIGN(16) const unsigned char tflite_learn_82[] = {
  0x20, 0x00, 0x00, 0x00, 0x54, 0x46, 0x4c, 0x33, 0x00, 0x00, 0x00, 0x00,
  0x14, 0x00, 0x20, 0x00, 0x1c, 0x00, 0x18, 0x00, 0x14, 0x00, 0x10, 0x00,
  0x0c, 0x00, 0x00, 0x00, 0x08, 0x00, 0x04, 0x00, 0x14, 0x00, 0x00, 0x00,
  0x1c, 0x00, 0x00, 0x00, 0x8c, 0x00, 0x00, 0x00, 0xe4, 0x00, 0x00, 0x00,
  0xbc, 0x05, 0x00, 0x00, 0xcc, 0x05, 0x00, 0x00, 0x90, 0x0c, 0x00, 0x00,
  0x03, 0x00, 0x00, 0x00, 0x01, 0x00, 0x00, 0x00, 0x10, 0x00, 0x00, 0x00,
  0x00, 0x00, 0x0a, 0x00, 0x10, 0x00, 0x0c, 0x00, 0x08, 0x00, 0x04, 0x00,
  0x0a, 0x00, 0x00, 0x00, 0x0c, 0x00, 0x00, 0x00, 0x1c, 0x00, 0x00, 0x00,
  0x3c, 0x00, 0x00, 0x00, 0x0f, 0x00, 0x00, 0x00, 0x73, 0x65, 0x72, 0x76,
  0x69, 0x6e, 0x67, 0x5f, 0x64, 0x65, 0x66, 0x61, 0x75, 0x6c, 0x74, 0x00,
  0x01, 0x00, 0x00, 0x00, 0x04, 0x00, 0x00, 0x00, 0x9c, 0xff, 0xff, 0xff,
  0x0a, 0x00, 0x00, 0x00, 0x04, 0x00, 0x00, 0x00, 0x08, 0x00, 0x00, 0x00,
  0x6f, 0x75, 0x74, 0x70, 0x75, 0x74, 0x5f, 0x30, 0x00, 0x00, 0x00, 0x00,
  0x01, 0x00, 0x00, 0x00, 0x04, 0x00, 0x00, 0x00, 0x2a, 0xfa, 0xff, 0xff,
  0x04, 0x00, 0x00, 0x00, 0x01, 0x00, 0x00, 0x00, 0x78, 0x00, 0x00, 0x00,
  0x02, 0x00, 0x00, 0x00, 0x34, 0x00, 0x00, 0x00, 0x04, 0x00, 0x00, 0x00,
  0xdc, 0xff, 0xff, 0xff, 0x0d, 0x00, 0x00, 0x00, 0x04, 0x00, 0x00, 0x00,
  0x13, 0x00, 0x00, 0x00, 0x43, 0x4f, 0x4e, 0x56, 0x45, 0x52, 0x53, 0x49,
  0x4f, 0x4e, 0x5f, 0x4d, 0x45, 0x54, 0x41, 0x44, 0x41, 0x54, 0x41, 0x00,
  0x08, 0x00, 0x0c, 0x00, 0x08, 0x00, 0x04, 0x00, 0x08, 0x00, 0x00, 0x00,
  0x0c, 0x00, 0x00, 0x00, 0x04, 0x00, 0x00, 0x00, 0x13, 0x00, 0x00, 0x00,
  0x6d, 0x69, 0x6e, 0x5f, 0x72, 0x75, 0x6e, 0x74, 0x69, 0x6d, 0x65, 0x5f,
  0x76, 0x65, 0x72, 0x73, 0x69, 0x6f, 0x6e, 0x00, 0x0e, 0x00, 0x00, 0x00,
  0xd4, 0x04, 0x00, 0x00, 0xcc, 0x04, 0x00, 0x00, 0xb4, 0x04, 0x00, 0x00,
  0x98, 0x04, 0x00, 0x00, 0x74, 0x04, 0x00, 0x00, 0x00, 0x04, 0x00, 0x00,
  0xa0, 0x03, 0x00, 0x00, 0xac, 0x00, 0x00, 0x00, 0xa4, 0x00, 0x00, 0x00,
  0x9c, 0x00, 0x00, 0x00, 0x94, 0x00, 0x00, 0x00, 0x8c, 0x00, 0x00, 0x00,
  0x6c, 0x00, 0x00, 0x00, 0x04, 0x00, 0x00, 0x00, 0xd2, 0xfa, 0xff, 0xff,
  0x04, 0x00, 0x00, 0x00, 0x58, 0x00, 0x00, 0x00, 0x0c, 0x00, 0x00, 0x00,
  0x08, 0x00, 0x0e, 0x00, 0x08, 0x00, 0x04, 0x00, 0x08, 0x00, 0x00, 0x00,
  0x10, 0x00, 0x00, 0x00, 0x28, 0x00, 0x00, 0x00, 0x00, 0x00, 0x06, 0x00,
  0x08, 0x00, 0x04, 0x00, 0x06, 0x00, 0x00, 0x00, 0x04, 0x00, 0x00, 0x00,
  0x01, 0x00, 0x00, 0x00, 0xeb, 0x03, 0x00, 0x00, 0x00, 0x00, 0x0a, 0x00,
  0x10, 0x00, 0x0c, 0x00, 0x08, 0x00, 0x04, 0x00, 0x0a, 0x00, 0x00, 0x00,
  0x03, 0x00, 0x00, 0x00, 0x02, 0x00, 0x00, 0x00, 0x04, 0x00, 0x00, 0x00,
  0x06, 0x00, 0x00, 0x00, 0x32, 0x2e, 0x31, 0x31, 0x2e, 0x31, 0x00, 0x00,
  0x36, 0xfb, 0xff, 0xff, 0x04, 0x00, 0x00, 0x00, 0x10, 0x00, 0x00, 0x00,
  0x31, 0x2e, 0x31, 0x34, 0x2e, 0x30, 0x00, 0x00, 0x00, 0x00, 0x00, 0x00,
  0x00, 0x00, 0x00, 0x00, 0x20, 0xfb, 0xff, 0xff, 0x24, 0xfb, 0xff, 0xff,
  0x28, 0xfb, 0xff, 0xff, 0x2c, 0xfb, 0xff, 0xff, 0x62, 0xfb, 0xff, 0xff,
  0x04, 0x00, 0x00, 0x00, 0xe4, 0x02, 0x00, 0x00, 0x06, 0xee, 0xdc, 0x52,
  0x1a, 0x37, 0x29, 0xd1, 0x2a, 0xbe, 0xff, 0x26, 0xb4, 0xc7, 0xeb, 0x58,
  0x20, 0x48, 0xd0, 0xd5, 0x50, 0xe3, 0x47, 0x10, 0xa3, 0x38, 0xd4, 0xd7,
  0xb9, 0xa7, 0x10, 0x15, 0x36, 0xb6, 0xa6, 0x21, 0xbf, 0x95, 0xe8, 0x2c,
  0xf3, 0xd8, 0xf9, 0x06, 0x07, 0x14, 0x40, 0xb0, 0x11, 0xf8, 0xfa, 0x24,
  0xb7, 0x32, 0x17, 0x48, 0xb3, 0xdd, 0xe1, 0x38, 0xd8, 0x1a, 0x17, 0xda,
  0x2e, 0xd5, 0xa8, 0xdb, 0x42, 0x39, 0x44, 0x29, 0xcc, 0xa1, 0x2d, 0xfa,
  0xac, 0xc3, 0x36, 0xc8, 0x30, 0x47, 0x51, 0xee, 0xb3, 0x07, 0xb6, 0x27,
  0xc2, 0x36, 0x12, 0x2c, 0xf8, 0x20, 0x55, 0xa1, 0x2e, 0xab, 0x05, 0xe0,
  0x51, 0x27, 0xc8, 0xaf, 0xc7, 0x35, 0x28, 0xb2, 0xe8, 0xdd, 0xab, 0x99,
  0x7d, 0xce, 0x49, 0xda, 0x3b, 0x15, 0x65, 0x3e, 0xac, 0x41, 0x45, 0x31,
  0x3c, 0x24, 0xf9, 0xd0, 0xd1, 0x18, 0x37, 0xc3, 0x26, 0xb5, 0xd3, 0x3a,
  0x3d, 0xc0, 0x4e, 0x51, 0x3d, 0xdd, 0x22, 0x46, 0xdc, 0x42, 0x02, 0x59,
  0x5a, 0xdb, 0x21, 0xbf, 0xe0, 0xbb, 0x36, 0xdd, 0xca, 0x35, 0xea, 0x0d,
  0xc7, 0xd4, 0xc4, 0x2f, 0x27, 0x3f, 0x01, 0xed, 0xfa, 0x54, 0xf6, 0xfd,
  0xe3, 0xfe, 0x43, 0x2c, 0xaa, 0xbb, 0x25, 0xca, 0x56, 0xc4, 0xdf, 0xdd,
  0xee, 0xe4, 0x46, 0x11, 0xfc, 0xe0, 0xb6, 0x09, 0x5d, 0xdc, 0x14, 0xa9,
  0xde, 0xa4, 0x2c, 0x10, 0xfe, 0xab, 0x1b, 0xe3, 0x08, 0xb7, 0xb3, 0xf7,
  0xd1, 0x45, 0xe8, 0x1a, 0xf3, 0xd3, 0x5d, 0xee, 0xf6, 0x48, 0xc7, 0x16,
  0xa9, 0x40, 0x45, 0xb9, 0xe5, 0xce, 0xe1, 0xaa, 0xd9, 0x3b, 0xde, 0x08,
  0xfd, 0xf7, 0xff, 0x32, 0x26, 0xf9, 0xdc, 0xda, 0x64, 0x4d, 0xd7, 0x15,
  0xd6, 0x47, 0xde, 0xf3, 0x5d, 0xa9, 0x47, 0x18, 0x3c, 0xab, 0xfe, 0xf7,
  0xb4, 0x36, 0xa9, 0x30, 0x99, 0xfc, 0x48, 0x37, 0x0f, 0x0f, 0x18, 0xd5,
  0x40, 0xdb, 0x4a, 0xcf, 0x14, 0xb1, 0x96, 0xd0, 0xbc, 0xb0, 0x48, 0x3d,
  0xb1, 0xbb, 0xea, 0xda, 0x4a, 0xd5, 0x0a, 0x94, 0xdc, 0x02, 0x42, 0x01,
  0x9b, 0xcd, 0x98, 0xde, 0x41, 0x41, 0x4e, 0xdb, 0xb6, 0x34, 0xeb, 0xc6,
  0xf5, 0xf2, 0x08, 0x39, 0x37, 0xdc, 0x10, 0xd6, 0x21, 0xd4, 0x5d, 0x11,
  0x55, 0x3e, 0x56, 0x28, 0x37, 0x37, 0x41, 0xf0, 0x4d, 0xb0, 0x31, 0xa9,
  0xf2, 0xfd, 0xae, 0xe3, 0xad, 0xb0, 0x2c, 0xb2, 0xf8, 0xcb, 0x36, 0xa9,
  0xfe, 0xce, 0xa0, 0xae, 0xbe, 0xa0, 0xe6, 0xc2, 0x48, 0xf4, 0x35, 0x40,
  0xc2, 0xeb, 0x3a, 0x11, 0x56, 0x5d, 0x3e, 0x03, 0x1a, 0xfc, 0x29, 0xd5,
  0xe4, 0xba, 0xfb, 0x40, 0x1b, 0x3e, 0x54, 0x0e, 0x1f, 0xad, 0xc6, 0xda,
  0x32, 0x0d, 0xf7, 0x1d, 0xb8, 0x1c, 0x18, 0xb7, 0x2c, 0xc7, 0xf9, 0xfd,
  0x21, 0x14, 0xaf, 0x29, 0xaa, 0x49, 0x4c, 0xed, 0xd3, 0xe0, 0x42, 0x3c,
  0xa4, 0xb5, 0xb7, 0xea, 0x5c, 0x54, 0xe5, 0xf1, 0x09, 0x35, 0xe7, 0xb6,
  0xab, 0x57, 0xd3, 0x3f, 0xe2, 0x4a, 0x4f, 0x36, 0x4f, 0xd7, 0x29, 0xd7,
  0xde, 0x54, 0x00, 0xe7, 0xe9, 0x55, 0x02, 0x1b, 0x23, 0x38, 0x28, 0x58,
  0x1e, 0xf3, 0xe7, 0xfd, 0xd6, 0x15, 0xe7, 0xba, 0xaa, 0xfd, 0x1f, 0xf6,
  0x1e, 0xbb, 0xf7, 0xc6, 0xd1, 0x3f, 0xf6, 0xc0, 0x2a, 0x4b, 0xee, 0x53,
  0x27, 0xe5, 0x4d, 0xee, 0x36, 0x43, 0xcd, 0x3d, 0x3c, 0xf9, 0x15, 0xf9,
  0x67, 0xf7, 0xf0, 0x22, 0xb5, 0x64, 0x55, 0x45, 0x5a, 0x1f, 0x82, 0x81,
  0x0e, 0x4b, 0x72, 0xd1, 0x67, 0x0e, 0x2c, 0x18, 0x22, 0x68, 0x28, 0xf4,
  0xd2, 0xb0, 0xf4, 0xbc, 0xec, 0xce, 0xb4, 0xf8, 0xe1, 0xde, 0xb2, 0xd5,
  0x6b, 0xf4, 0xfb, 0x1e, 0x9c, 0xb9, 0xac, 0xef, 0x13, 0x27, 0x51, 0xae,
  0xd7, 0xfc, 0xe7, 0xc2, 0xca, 0x17, 0x23, 0x1b, 0x5c, 0xa3, 0xb0, 0x5c,
  0xa8, 0xd9, 0xa8, 0x0e, 0x38, 0xbb, 0x51, 0x5f, 0xd9, 0x48, 0xb0, 0xc9,
  0xf2, 0xb0, 0x4b, 0xeb, 0x5f, 0xd0, 0xdb, 0x39, 0xf7, 0xca, 0xba, 0x03,
  0x68, 0xc7, 0xa7, 0xa3, 0x17, 0xfd, 0x19, 0x29, 0x24, 0xff, 0x2a, 0xd2,
  0x32, 0x30, 0x4c, 0x14, 0x2a, 0x21, 0x3a, 0xac, 0x52, 0xb8, 0x27, 0x18,
  0x09, 0xdc, 0xe6, 0xf5, 0xd1, 0x1f, 0xe1, 0xe3, 0x31, 0xfc, 0x14, 0x01,
  0x0c, 0xf5, 0x0d, 0xf1, 0x52, 0xe4, 0xda, 0xc0, 0x19, 0xb0, 0xb6, 0xe9,
  0x0e, 0x2a, 0xd7, 0x19, 0xbf, 0xe0, 0x28, 0xda, 0xb1, 0xd1, 0x27, 0xe5,
  0x25, 0xdb, 0xed, 0x45, 0xc7, 0x55, 0x28, 0x0c, 0x55, 0xd2, 0xec, 0xd6,
  0x28, 0xdb, 0x42, 0x38, 0x56, 0x31, 0xf0, 0xf2, 0x56, 0x2e, 0xf7, 0xde,
  0x5f, 0xe4, 0x4a, 0xc1, 0xec, 0xcd, 0x1c, 0x5a, 0xd8, 0x3b, 0xde, 0xb9,
  0x5b, 0xd8, 0xc6, 0xd8, 0x30, 0xfd, 0xc6, 0xfd, 0xb9, 0x05, 0x1e, 0x14,
  0x66, 0x60, 0xb1, 0xe8, 0x32, 0xa4, 0x2d, 0x08, 0xc3, 0xf7, 0xfd, 0xdf,
  0xa9, 0xdc, 0xb0, 0xbd, 0xba, 0xcf, 0x06, 0xc8, 0xcc, 0x24, 0xd1, 0x4e,
  0xcd, 0x4a, 0xd7, 0xae, 0xfc, 0xe5, 0xac, 0xbf, 0x2b, 0xd7, 0xc4, 0xab,
  0x5d, 0x4a, 0x1a, 0xf7, 0x4a, 0x06, 0xcb, 0xf0, 0xdb, 0x16, 0xef, 0x3e,
  0x38, 0xb0, 0x45, 0x3b, 0xf9, 0xfa, 0xd3, 0xf7, 0xab, 0xc7, 0x16, 0xdf,
  0xa5, 0x43, 0xb1, 0xf5, 0xfd, 0xbd, 0xd3, 0x1b, 0x45, 0xbe, 0x08, 0x49,
  0xbf, 0x01, 0x1a, 0xab, 0x52, 0xfe, 0xff, 0xff, 0x04, 0x00, 0x00, 0x00,
  0x50, 0x00, 0x00, 0x00, 0x34, 0x00, 0x00, 0x00, 0x63, 0xff, 0xff, 0xff,
  0xfe, 0xff, 0xff, 0xff, 0x63, 0x01, 0x00, 0x00, 0x1e, 0xff, 0xff, 0xff,
  0x00, 0x00, 0x00, 0x00, 0x8a, 0xff, 0xff, 0xff, 0xfb, 0xff, 0xff, 0xff,
  0x3e, 0xff, 0xff, 0xff, 0xf6, 0xff, 0xff, 0xff, 0xfd, 0xff, 0xff, 0xff,
  0xfd, 0xff, 0xff, 0xff, 0x9c, 0x01, 0x00, 0x00, 0x0a, 0x01, 0x00, 0x00,
  0xe2, 0xff, 0xff, 0xff, 0x1b, 0x00, 0x00, 0x00, 0x66, 0xff, 0xff, 0xff,
  0x38, 0x01, 0x00, 0x00, 0x00, 0x00, 0x00, 0x00, 0xdb, 0xff, 0xff, 0xff,
  0xae, 0xfe, 0xff, 0xff, 0x04, 0x00, 0x00, 0x00, 0x64, 0x00, 0x00, 0x00,
  0x53, 0xda, 0xf3, 0x7f, 0xa6, 0xd0, 0xd4, 0x34, 0x28, 0xec, 0xe7, 0xb7,
  0x62, 0x3d, 0x98, 0x38, 0x05, 0xcc, 0xdd, 0xeb, 0xe3, 0x34, 0xc6, 0xee,
  0x46, 0xd7, 0x4d, 0xd3, 0x25, 0x36, 0xf4, 0x21, 0xb6, 0x26, 0xe7, 0xdb,
  0xda, 0xde, 0x0d, 0xfa, 0xfd, 0xf7, 0xc7, 0x71, 0xeb, 0x20, 0x29, 0x21,
  0xd4, 0xf9, 0xcc, 0x3b, 0xef, 0x3f, 0xf4, 0xdb, 0xd1, 0x3c, 0xf8, 0xf6,
  0x2a, 0x28, 0x03, 0x1d, 0x37, 0x26, 0xf8, 0x17, 0xca, 0x3c, 0x2c, 0x11,
  0xd7, 0xb1, 0xd7, 0xe8, 0xee, 0xe6, 0x32, 0x13, 0xf7, 0x1b, 0x30, 0x01,
  0xb9, 0xf5, 0xe1, 0x00, 0xc3, 0x37, 0x2a, 0x41, 0xf7, 0x0b, 0x16, 0x11,
  0xbe, 0x35, 0x2a, 0xc3, 0x1e, 0xff, 0xff, 0xff, 0x04, 0x00, 0x00, 0x00,
  0x14, 0x00, 0x00, 0x00, 0x00, 0x03, 0x00, 0x00, 0x7c, 0xfe, 0xff, 0xff,
  0xb2, 0x01, 0x00, 0x00, 0xab, 0xff, 0xff, 0xff, 0x6c, 0x01, 0x00, 0x00,
  0x3e, 0xff, 0xff, 0xff, 0x04, 0x00, 0x00, 0x00, 0x0a, 0x00, 0x00, 0x00,
  0x74, 0x9c, 0x53, 0x6b, 0x7f, 0x20, 0x0a, 0xe0, 0xeb, 0x9d, 0x00, 0x00,
  0x56, 0xff, 0xff, 0xff, 0x04, 0x00, 0x00, 0x00, 0x08, 0x00, 0x00, 0x00,
  0xf5, 0xf9, 0xff, 0xff, 0x0b, 0x06, 0x00, 0x00, 0x38, 0xff, 0xff, 0xff,
  0x3c, 0xff, 0xff, 0xff, 0x0f, 0x00, 0x00, 0x00, 0x4d, 0x4c, 0x49, 0x52,
  0x20, 0x43, 0x6f, 0x6e, 0x76, 0x65, 0x72, 0x74, 0x65, 0x64, 0x2e, 0x00,
  0x01, 0x00, 0x00, 0x00, 0x14, 0x00, 0x00, 0x00, 0x00, 0x00, 0x0e, 0x00,
  0x18, 0x00, 0x14, 0x00, 0x10, 0x00, 0x0c, 0x00, 0x08, 0x00, 0x04, 0x00,
  0x0e, 0x00, 0x00, 0x00, 0x14, 0x00, 0x00, 0x00, 0x1c, 0x00, 0x00, 0x00,
  0x28, 0x01, 0x00, 0x00, 0x2c, 0x01, 0x00, 0x00, 0x30, 0x01, 0x00, 0x00,
  0x04, 0x00, 0x00, 0x00, 0x6d, 0x61, 0x69, 0x6e, 0x00, 0x00, 0x00, 0x00,
  0x04, 0x00, 0x00, 0x00, 0xd0, 0x00, 0x00, 0x00, 0x88, 0x00, 0x00, 0x00,
  0x50, 0x00, 0x00, 0x00, 0x14, 0x00, 0x00, 0x00, 0x00, 0x00, 0x0e, 0x00,
  0x1a, 0x00, 0x14, 0x00, 0x10, 0x00, 0x0c, 0x00, 0x0b, 0x00, 0x04, 0x00,
  0x0e, 0x00, 0x00, 0x00, 0x1c, 0x00, 0x00, 0x00, 0x00, 0x00, 0x00, 0x09,
  0x1c, 0x00, 0x00, 0x00, 0x20, 0x00, 0x00, 0x00, 0x01, 0x00, 0x00, 0x00,
  0x00, 0x00, 0x06, 0x00, 0x08, 0x00, 0x04, 0x00, 0x06, 0x00, 0x00, 0x00,
  0x00, 0x00, 0x80, 0x3f, 0x01, 0x00, 0x00, 0x00, 0x0a, 0x00, 0x00, 0x00,
  0x01, 0x00, 0x00, 0x00, 0x09, 0x00, 0x00, 0x00, 0x96, 0xff, 0xff, 0xff,
  0x14, 0x00, 0x00, 0x00, 0x00, 0x00, 0x00, 0x08, 0x10, 0x00, 0x00, 0x00,
  0x14, 0x00, 0x00, 0x00, 0x04, 0x00, 0x04, 0x00, 0x04, 0x00, 0x00, 0x00,
  0x01, 0x00, 0x00, 0x00, 0x09, 0x00, 0x00, 0x00, 0x03, 0x00, 0x00, 0x00,
  0x08, 0x00, 0x00, 0x00, 0x02, 0x00, 0x00, 0x00, 0x01, 0x00, 0x00, 0x00,
  0xca, 0xff, 0xff, 0xff, 0x10, 0x00, 0x00, 0x00, 0x00, 0x00, 0x00, 0x08,
  0x10, 0x00, 0x00, 0x00, 0x14, 0x00, 0x00, 0x00, 0xba, 0xff, 0xff, 0xff,
  0x00, 0x00, 0x00, 0x01, 0x01, 0x00, 0x00, 0x00, 0x08, 0x00, 0x00, 0x00,
  0x03, 0x00, 0x00, 0x00, 0x07, 0x00, 0x00, 0x00, 0x04, 0x00, 0x00, 0x00,
  0x03, 0x00, 0x00, 0x00, 0x00, 0x00, 0x0e, 0x00, 0x16, 0x00, 0x00, 0x00,
  0x10, 0x00, 0x0c, 0x00, 0x0b, 0x00, 0x04, 0x00, 0x0e, 0x00, 0x00, 0x00,
  0x18, 0x00, 0x00, 0x00, 0x00, 0x00, 0x00, 0x08, 0x18, 0x00, 0x00, 0x00,
  0x1c, 0x00, 0x00, 0x00, 0x00, 0x00, 0x06, 0x00, 0x08, 0x00, 0x07, 0x00,
  0x06, 0x00, 0x00, 0x00, 0x00, 0x00, 0x00, 0x01, 0x01, 0x00, 0x00, 0x00,
  0x07, 0x00, 0x00, 0x00, 0x03, 0x00, 0x00, 0x00, 0x00, 0x00, 0x00, 0x00,
  0x06, 0x00, 0x00, 0x00, 0x05, 0x00, 0x00, 0x00, 0x01, 0x00, 0x00, 0x00,
  0x0a, 0x00, 0x00, 0x00, 0x01, 0x00, 0x00, 0x00, 0x00, 0x00, 0x00, 0x00,
  0x0b, 0x00, 0x00, 0x00, 0xf8, 0x04, 0x00, 0x00, 0x68, 0x04, 0x00, 0x00,
  0xfc, 0x03, 0x00, 0x00, 0x80, 0x03, 0x00, 0x00, 0x14, 0x03, 0x00, 0x00,
  0xa0, 0x02, 0x00, 0x00, 0x34, 0x02, 0x00, 0x00, 0x98, 0x01, 0x00, 0x00,
  0xf4, 0x00, 0x00, 0x00, 0x70, 0x00, 0x00, 0x00, 0x04, 0x00, 0x00, 0x00,
  0x4a, 0xfb, 0xff, 0xff, 0x00, 0x00, 0x00, 0x01, 0x14, 0x00, 0x00, 0x00,
  0x30, 0x00, 0x00, 0x00, 0x0b, 0x00, 0x00, 0x00, 0x00, 0x00, 0x00, 0x09,
  0x44, 0x00, 0x00, 0x00, 0x34, 0xfb, 0xff, 0xff, 0x08, 0x00, 0x00, 0x00,
  0x10, 0x00, 0x00, 0x00, 0x01, 0x00, 0x00, 0x00, 0x80, 0xff, 0xff, 0xff,
  0xff, 0xff, 0xff, 0xff, 0x01, 0x00, 0x00, 0x00, 0x00, 0x00, 0x80, 0x3b,
  0x19, 0x00, 0x00, 0x00, 0x53, 0x74, 0x61, 0x74, 0x65, 0x66, 0x75, 0x6c,
  0x50, 0x61, 0x72, 0x74, 0x69, 0x74, 0x69, 0x6f, 0x6e, 0x65, 0x64, 0x43,
  0x61, 0x6c, 0x6c, 0x3a, 0x30, 0x00, 0x00, 0x00, 0x02, 0x00, 0x00, 0x00,
  0x01, 0x00, 0x00, 0x00, 0x02, 0x00, 0x00, 0x00, 0xb2, 0xfb, 0xff, 0xff,
  0x00, 0x00, 0x00, 0x01, 0x14, 0x00, 0x00, 0x00, 0x30, 0x00, 0x00, 0x00,
  0x0a, 0x00, 0x00, 0x00, 0x00, 0x00, 0x00, 0x09, 0x5c, 0x00, 0x00, 0x00,
  0x9c, 0xfb, 0xff, 0xff, 0x08, 0x00, 0x00, 0x00, 0x10, 0x00, 0x00, 0x00,
  0x01, 0x00, 0x00, 0x00, 0xfc, 0xff, 0xff, 0xff, 0xff, 0xff, 0xff, 0xff,
  0x01, 0x00, 0x00, 0x00, 0x11, 0xcc, 0x64, 0x3d, 0x32, 0x00, 0x00, 0x00,
  0x73, 0x65, 0x71, 0x75, 0x65, 0x6e, 0x74, 0x69, 0x61, 0x6c, 0x2f, 0x79,
  0x5f, 0x70, 0x72, 0x65, 0x64, 0x2f, 0x4d, 0x61, 0x74, 0x4d, 0x75, 0x6c,
  0x3b, 0x73, 0x65, 0x71, 0x75, 0x65, 0x6e, 0x74, 0x69, 0x61, 0x6c, 0x2f,
  0x79, 0x5f, 0x70, 0x72, 0x65, 0x64, 0x2f, 0x42, 0x69, 0x61, 0x73, 0x41,
  0x64, 0x64, 0x00, 0x00, 0x02, 0x00, 0x00, 0x00, 0x01, 0x00, 0x00, 0x00,
  0x02, 0x00, 0x00, 0x00, 0x32, 0xfc, 0xff, 0xff, 0x00, 0x00, 0x00, 0x01,
  0x14, 0x00, 0x00, 0x00, 0x34, 0x00, 0x00, 0x00, 0x09, 0x00, 0x00, 0x00,
  0x00, 0x00, 0x00, 0x09, 0x7c, 0x00, 0x00, 0x00, 0x1c, 0xfc, 0xff, 0xff,
  0x08, 0x00, 0x00, 0x00, 0x14, 0x00, 0x00, 0x00, 0x01, 0x00, 0x00, 0x00,
  0x80, 0xff, 0xff, 0xff, 0xff, 0xff, 0xff, 0xff, 0x00, 0x00, 0x00, 0x00,
  0x01, 0x00, 0x00, 0x00, 0x66, 0x20, 0x14, 0x3d, 0x4c, 0x00, 0x00, 0x00,
  0x73, 0x65, 0x71, 0x75, 0x65, 0x6e, 0x74, 0x69, 0x61, 0x6c, 0x2f, 0x64,
  0x65, 0x6e, 0x73, 0x65, 0x5f, 0x31, 0x2f, 0x4d, 0x61, 0x74, 0x4d, 0x75,
  0x6c, 0x3b, 0x73, 0x65, 0x71, 0x75, 0x65, 0x6e, 0x74, 0x69, 0x61, 0x6c,
  0x2f, 0x64, 0x65, 0x6e, 0x73, 0x65, 0x5f, 0x31, 0x2f, 0x52, 0x65, 0x6c,
  0x75, 0x3b, 0x73, 0x65, 0x71, 0x75, 0x65, 0x6e, 0x74, 0x69, 0x61, 0x6c,
  0x2f, 0x64, 0x65, 0x6e, 0x73, 0x65, 0x5f, 0x31, 0x2f, 0x42, 0x69, 0x61,
  0x73, 0x41, 0x64, 0x64, 0x00, 0x00, 0x00, 0x00, 0x02, 0x00, 0x00, 0x00,
  0x01, 0x00, 0x00, 0x00, 0x05, 0x00, 0x00, 0x00, 0xd2, 0xfc, 0xff, 0xff,
  0x00, 0x00, 0x00, 0x01, 0x14, 0x00, 0x00, 0x00, 0x34, 0x00, 0x00, 0x00,
  0x08, 0x00, 0x00, 0x00, 0x00, 0x00, 0x00, 0x09, 0x74, 0x00, 0x00, 0x00,
  0xbc, 0xfc, 0xff, 0xff, 0x08, 0x00, 0x00, 0x00, 0x14, 0x00, 0x00, 0x00,
  0x01, 0x00, 0x00, 0x00, 0x80, 0xff, 0xff, 0xff, 0xff, 0xff, 0xff, 0xff,
  0x00, 0x00, 0x00, 0x00, 0x01, 0x00, 0x00, 0x00, 0x71, 0xd2, 0x91, 0x3d,
  0x46, 0x00, 0x00, 0x00, 0x73, 0x65, 0x71, 0x75, 0x65, 0x6e, 0x74, 0x69,
  0x61, 0x6c, 0x2f, 0x64, 0x65, 0x6e, 0x73, 0x65, 0x2f, 0x4d, 0x61, 0x74,
  0x4d, 0x75, 0x6c, 0x3b, 0x73, 0x65, 0x71, 0x75, 0x65, 0x6e, 0x74, 0x69,
  0x61, 0x6c, 0x2f, 0x64, 0x65, 0x6e, 0x73, 0x65, 0x2f, 0x52, 0x65, 0x6c,
  0x75, 0x3b, 0x73, 0x65, 0x71, 0x75, 0x65, 0x6e, 0x74, 0x69, 0x61, 0x6c,
  0x2f, 0x64, 0x65, 0x6e, 0x73, 0x65, 0x2f, 0x42, 0x69, 0x61, 0x73, 0x41,
  0x64, 0x64, 0x00, 0x00, 0x02, 0x00, 0x00, 0x00, 0x01, 0x00, 0x00, 0x00,
  0x14, 0x00, 0x00, 0x00, 0x6a, 0xfd, 0xff, 0xff, 0x00, 0x00, 0x00, 0x01,
  0x14, 0x00, 0x00, 0x00, 0x34, 0x00, 0x00, 0x00, 0x07, 0x00, 0x00, 0x00,
  0x00, 0x00, 0x00, 0x09, 0x44, 0x00, 0x00, 0x00, 0x54, 0xfd, 0xff, 0xff,
  0x08, 0x00, 0x00, 0x00, 0x14, 0x00, 0x00, 0x00, 0x01, 0x00, 0x00, 0x00,
  0x00, 0x00, 0x00, 0x00, 0x00, 0x00, 0x00, 0x00, 0x00, 0x00, 0x00, 0x00,
  0x01, 0x00, 0x00, 0x00, 0x8b, 0x59, 0x60, 0x3b, 0x17, 0x00, 0x00, 0x00,
  0x73, 0x65, 0x71, 0x75, 0x65, 0x6e, 0x74, 0x69, 0x61, 0x6c, 0x2f, 0x64,
  0x65, 0x6e, 0x73, 0x65, 0x2f, 0x4d, 0x61, 0x74, 0x4d, 0x75, 0x6c, 0x00,
  0x02, 0x00, 0x00, 0x00, 0x14, 0x00, 0x00, 0x00, 0x25, 0x00, 0x00, 0x00,
  0xd2, 0xfd, 0xff, 0xff, 0x00, 0x00, 0x00, 0x01, 0x14, 0x00, 0x00, 0x00,
  0x30, 0x00, 0x00, 0x00, 0x06, 0x00, 0x00, 0x00, 0x00, 0x00, 0x00, 0x02,
  0x50, 0x00, 0x00, 0x00, 0xbc, 0xfd, 0xff, 0xff, 0x08, 0x00, 0x00, 0x00,
  0x10, 0x00, 0x00, 0x00, 0x01, 0x00, 0x00, 0x00, 0x00, 0x00, 0x00, 0x00,
  0x00, 0x00, 0x00, 0x00, 0x01, 0x00, 0x00, 0x00, 0x77, 0xa3, 0x26, 0x3a,
  0x27, 0x00, 0x00, 0x00, 0x73, 0x65, 0x71, 0x75, 0x65, 0x6e, 0x74, 0x69,
  0x61, 0x6c, 0x2f, 0x64, 0x65, 0x6e, 0x73, 0x65, 0x2f, 0x42, 0x69, 0x61,
  0x73, 0x41, 0x64, 0x64, 0x2f, 0x52, 0x65, 0x61, 0x64, 0x56, 0x61, 0x72,
  0x69, 0x61, 0x62, 0x6c, 0x65, 0x4f, 0x70, 0x00, 0x01, 0x00, 0x00, 0x00,
  0x14, 0x00, 0x00, 0x00, 0x42, 0xfe, 0xff, 0xff, 0x00, 0x00, 0x00, 0x01,
  0x14, 0x00, 0x00, 0x00, 0x30, 0x00, 0x00, 0x00, 0x05, 0x00, 0x00, 0x00,
  0x00, 0x00, 0x00, 0x09, 0x44, 0x00, 0x00, 0x00, 0x2c, 0xfe, 0xff, 0xff,
  0x08, 0x00, 0x00, 0x00, 0x10, 0x00, 0x00, 0x00, 0x01, 0x00, 0x00, 0x00,
  0x00, 0x00, 0x00, 0x00, 0x00, 0x00, 0x00, 0x00, 0x01, 0x00, 0x00, 0x00,
  0x8a, 0xe8, 0xc7, 0x3b, 0x19, 0x00, 0x00, 0x00, 0x73, 0x65, 0x71, 0x75,
  0x65, 0x6e, 0x74, 0x69, 0x61, 0x6c, 0x2f, 0x64, 0x65, 0x6e, 0x73, 0x65,
  0x5f, 0x31, 0x2f, 0x4d, 0x61, 0x74, 0x4d, 0x75, 0x6c, 0x00, 0x00, 0x00,
  0x02, 0x00, 0x00, 0x00, 0x05, 0x00, 0x00, 0x00, 0x14, 0x00, 0x00, 0x00,
  0xaa, 0xfe, 0xff, 0xff, 0x00, 0x00, 0x00, 0x01, 0x14, 0x00, 0x00, 0x00,
  0x34, 0x00, 0x00, 0x00, 0x04, 0x00, 0x00, 0x00, 0x00, 0x00, 0x00, 0x02,
  0x58, 0x00, 0x00, 0x00, 0x94, 0xfe, 0xff, 0xff, 0x08, 0x00, 0x00, 0x00,
  0x14, 0x00, 0x00, 0x00, 0x01, 0x00, 0x00, 0x00, 0x00, 0x00, 0x00, 0x00,
  0x00, 0x00, 0x00, 0x00, 0x00, 0x00, 0x00, 0x00, 0x01, 0x00, 0x00, 0x00,
  0x16, 0xbe, 0xe3, 0x39, 0x29, 0x00, 0x00, 0x00, 0x73, 0x65, 0x71, 0x75,
  0x65, 0x6e, 0x74, 0x69, 0x61, 0x6c, 0x2f, 0x64, 0x65, 0x6e, 0x73, 0x65,
  0x5f, 0x31, 0x2f, 0x42, 0x69, 0x61, 0x73, 0x41, 0x64, 0x64, 0x2f, 0x52,
  0x65, 0x61, 0x64, 0x56, 0x61, 0x72, 0x69, 0x61, 0x62, 0x6c, 0x65, 0x4f,
  0x70, 0x00, 0x00, 0x00, 0x01, 0x00, 0x00, 0x00, 0x05, 0x00, 0x00, 0x00,
  0x22, 0xff, 0xff, 0xff, 0x00, 0x00, 0x00, 0x01, 0x14, 0x00, 0x00, 0x00,
  0x30, 0x00, 0x00, 0x00, 0x03, 0x00, 0x00, 0x00, 0x00, 0x00, 0x00, 0x09,
  0x44, 0x00, 0x00, 0x00, 0x0c, 0xff, 0xff, 0xff, 0x08, 0x00, 0x00, 0x00,
  0x10, 0x00, 0x00, 0x00, 0x01, 0x00, 0x00, 0x00, 0x00, 0x00, 0x00, 0x00,
  0x00, 0x00, 0x00, 0x00, 0x01, 0x00, 0x00, 0x00, 0x97, 0x1a, 0xe8, 0x3b,
  0x18, 0x00, 0x00, 0x00, 0x73, 0x65, 0x71, 0x75, 0x65, 0x6e, 0x74, 0x69,
  0x61, 0x6c, 0x2f, 0x79, 0x5f, 0x70, 0x72, 0x65, 0x64, 0x2f, 0x4d, 0x61,
  0x74, 0x4d, 0x75, 0x6c, 0x00, 0x00, 0x00, 0x00, 0x02, 0x00, 0x00, 0x00,
  0x02, 0x00, 0x00, 0x00, 0x05, 0x00, 0x00, 0x00, 0x8a, 0xff, 0xff, 0xff,
  0x00, 0x00, 0x00, 0x01, 0x14, 0x00, 0x00, 0x00, 0x30, 0x00, 0x00, 0x00,
  0x02, 0x00, 0x00, 0x00, 0x00, 0x00, 0x00, 0x02, 0x54, 0x00, 0x00, 0x00,
  0x74, 0xff, 0xff, 0xff, 0x08, 0x00, 0x00, 0x00, 0x10, 0x00, 0x00, 0x00,
  0x01, 0x00, 0x00, 0x00, 0x00, 0x00, 0x00, 0x00, 0x00, 0x00, 0x00, 0x00,
  0x01, 0x00, 0x00, 0x00, 0xbf, 0x4c, 0x86, 0x39, 0x28, 0x00, 0x00, 0x00,
  0x73, 0x65, 0x71, 0x75, 0x65, 0x6e, 0x74, 0x69, 0x61, 0x6c, 0x2f, 0x79,
  0x5f, 0x70, 0x72, 0x65, 0x64, 0x2f, 0x42, 0x69, 0x61, 0x73, 0x41, 0x64,
  0x64, 0x2f, 0x52, 0x65, 0x61, 0x64, 0x56, 0x61, 0x72, 0x69, 0x61, 0x62,
  0x6c, 0x65, 0x4f, 0x70, 0x00, 0x00, 0x00, 0x00, 0x01, 0x00, 0x00, 0x00,
  0x02, 0x00, 0x00, 0x00, 0x00, 0x00, 0x16, 0x00, 0x1c, 0x00, 0x18, 0x00,
  0x17, 0x00, 0x10, 0x00, 0x0c, 0x00, 0x08, 0x00, 0x00, 0x00, 0x00, 0x00,
  0x00, 0x00, 0x07, 0x00, 0x16, 0x00, 0x00, 0x00, 0x00, 0x00, 0x00, 0x01,
  0x20, 0x00, 0x00, 0x00, 0x40, 0x00, 0x00, 0x00, 0x01, 0x00, 0x00, 0x00,
  0x00, 0x00, 0x00, 0x09, 0x4c, 0x00, 0x00, 0x00, 0x0c, 0x00, 0x0c, 0x00,
  0x00, 0x00, 0x00, 0x00, 0x08, 0x00, 0x04, 0x00, 0x0c, 0x00, 0x00, 0x00,
  0x08, 0x00, 0x00, 0x00, 0x14, 0x00, 0x00, 0x00, 0x01, 0x00, 0x00, 0x00,
  0x96, 0xff, 0xff, 0xff, 0xff, 0xff, 0xff, 0xff, 0x00, 0x00, 0x00, 0x00,
  0x01, 0x00, 0x00, 0x00, 0xaa, 0x25, 0x3e, 0x3e, 0x13, 0x00, 0x00, 0x00,
  0x73, 0x65, 0x72, 0x76, 0x69, 0x6e, 0x67, 0x5f, 0x64, 0x65, 0x66, 0x61,
  0x75, 0x6c, 0x74, 0x5f, 0x78, 0x3a, 0x30, 0x00, 0x02, 0x00, 0x00, 0x00,
  0x01, 0x00, 0x00, 0x00, 0x25, 0x00, 0x00, 0x00, 0x02, 0x00, 0x00, 0x00,
  0x24, 0x00, 0x00, 0x00, 0x04, 0x00, 0x00, 0x00, 0xf0, 0xff, 0xff, 0xff,
  0x19, 0x00, 0x00, 0x00, 0x02, 0x00, 0x00, 0x00, 0x00, 0x00, 0x00, 0x19,
  0x0c, 0x00, 0x10, 0x00, 0x0f, 0x00, 0x00, 0x00, 0x08, 0x00, 0x04, 0x00,
  0x0c, 0x00, 0x00, 0x00, 0x09, 0x00, 0x00, 0x00, 0x04, 0x00, 0x00, 0x00,
  0x00, 0x00, 0x00, 0x09
};
unsigned int tflite_learn_82_len = 3328;

#endif // _EI_CLASSIFIER_TFLITE_LEARN_82_H_

